#ifndef SINE_MODEL_H
#define SINE_MODEL_H

unsigned char sine_model[] = {
    // Number of Layers
    0x05, 0x00, 0x00, 0x00,
    // Max workspace arena
    0x20, 0x00, 0x00, 0x00,

    // Layer Type: Linear Layer
    0x00, 0x00, 0x00, 0x00,
    // Output size and Input size
    0x20, 0x00, 0x00, 0x00, 0x01, 0x00, 0x00, 0x00,
    // Weight
    0x66, 0x89, 0xE1, 0x3E, 0xE3, 0xC8, 0x3D, 0xBF, 0xF6, 0xA5, 0x14, 0xBF, 0xF9, 0x25, 0x21, 0x3F,
    0x46, 0x47, 0x61, 0xBE, 0x28, 0xD2, 0xCD, 0xBE, 0xBD, 0xCB, 0xBC, 0x3E, 0xE7, 0x65, 0x84, 0xBE,
    0xA8, 0x48, 0x04, 0xBF, 0x48, 0x90, 0x57, 0x3C, 0x06, 0x5A, 0x67, 0xBF, 0xE0, 0xED, 0x99, 0xBE,
    0x90, 0x8D, 0x97, 0xBE, 0xBC, 0x0C, 0x67, 0x3F, 0x4E, 0x71, 0x71, 0xBF, 0x8F, 0x34, 0x2A, 0x3F,
    0x48, 0xB5, 0x26, 0xBE, 0xB5, 0xF3, 0x55, 0x3E, 0x2E, 0x06, 0x71, 0x3F, 0x21, 0x4E, 0x77, 0x3F,
    0xB9, 0x19, 0x37, 0xBF, 0xF4, 0x03, 0xC7, 0xBE, 0x37, 0x01, 0x50, 0x3F, 0xAA, 0x5A, 0x0D, 0x3F,
    0x76, 0xB3, 0x61, 0xBE, 0x1E, 0xB0, 0x0E, 0xBF, 0x9B, 0x12, 0x2A, 0x3F, 0xB1, 0x50, 0x30, 0xBF,
    0xF0, 0x4F, 0x82, 0xBD, 0x61, 0x85, 0xB3, 0x3E, 0x84, 0xB1, 0xC8, 0xBE, 0x86, 0xA3, 0x12, 0x3F,
    // Bias
    0x78, 0x49, 0x9C, 0xBE, 0xA8, 0xA2, 0x3D, 0x3F, 0x06, 0x72, 0x85, 0x3F, 0x78, 0x1E, 0x85, 0xBF,
    0x50, 0x5F, 0x7E, 0x3F, 0x9C, 0xDB, 0x0C, 0xBF, 0x95, 0xFA, 0xFF, 0xBE, 0x93, 0x68, 0x86, 0x3F,
    0xEE, 0x6A, 0x0D, 0xBF, 0xBC, 0xC4, 0x10, 0xBF, 0xEC, 0x02, 0x0D, 0xBF, 0x80, 0x98, 0x6C, 0xBD,
    0xA2, 0x1D, 0x61, 0xBF, 0xE0, 0xBC, 0x01, 0xBF, 0xFC, 0xA3, 0x84, 0xBE, 0xBF, 0x17, 0x27, 0x3F,
    0x0E, 0x0F, 0x29, 0x3F, 0x0B, 0xFD, 0x8B, 0xBF, 0x40, 0x8C, 0x91, 0xBE, 0xDE, 0x66, 0x42, 0x3F,
    0xDF, 0x9F, 0x14, 0x3F, 0x3C, 0x05, 0x67, 0xBF, 0x91, 0x2C, 0x35, 0xBF, 0x3F, 0x44, 0xFE, 0xBE,
    0x68, 0x7D, 0x86, 0x3F, 0xA7, 0x36, 0x2A, 0x3F, 0xC8, 0x13, 0x12, 0x3F, 0xBF, 0xB1, 0x52, 0x3F,
    0x18, 0xEB, 0x44, 0xBF, 0x59, 0xFB, 0x03, 0x3D, 0x60, 0xDF, 0x73, 0xBD, 0x3B, 0x34, 0xFF, 0xBE,

    // Layer Type: ReLU Activation
    0x01, 0x00, 0x00, 0x00,
    // Input dimensions and shape
    0x01, 0x00, 0x00, 0x00, 0x20, 0x00, 0x00, 0x00,

    // Layer Type: Linear Layer
    0x00, 0x00, 0x00, 0x00,
    // Output size and Input size
    0x10, 0x00, 0x00, 0x00, 0x20, 0x00, 0x00, 0x00,
    // Weight
    0xD5, 0x8D, 0xE5, 0xBC, 0xB8, 0x18, 0xBF, 0x3D, 0x48, 0xA0, 0xB7, 0x3D, 0x3B, 0xE8, 0x19, 0x3D,
    0x46, 0x87, 0xE0, 0xBD, 0xE5, 0x9D, 0x9C, 0xBD, 0x25, 0xCC, 0x1E, 0x3D, 0xC8, 0x04, 0xEA, 0x3C,
    0x95, 0xDD, 0xF1, 0xBD, 0x5C, 0x25, 0xD8, 0x3C, 0xA2, 0xE8, 0xD3, 0x3D, 0x87, 0xDC, 0x08, 0x3E,
    0x50, 0x83, 0x20, 0xBE, 0x9D, 0xCE, 0x0D, 0x3E, 0x06, 0x6D, 0x04, 0x3E, 0x97, 0xE4, 0x83, 0xBD,
    0xD5, 0x83, 0xB3, 0x3D, 0x9B, 0x57, 0x7A, 0x3D, 0xC8, 0x5B, 0x16, 0xBE, 0xB2, 0x17, 0x25, 0xBE,
    0xEC, 0xFC, 0xEE, 0xBD, 0xD5, 0xCA, 0xD2, 0x3D, 0xD7, 0xBD, 0xD2, 0xBD, 0x0B, 0x0B, 0x28, 0x3E,
    0x16, 0x5A, 0xA5, 0xBD, 0x4B, 0xC8, 0x1F, 0xBE, 0x4E, 0x04, 0x11, 0xBE, 0xEF, 0xA4, 0x7C, 0x3C,
    0xE4, 0x13, 0x3D, 0x3D, 0x80, 0x82, 0x36, 0x3D, 0xA9, 0x35, 0xF0, 0xBD, 0xB2, 0x72, 0x00, 0x3D,
    0x16, 0x8F, 0xEF, 0xBC, 0x58, 0xA5, 0x45, 0xBE, 0x72, 0x0B, 0x3A, 0xBE, 0x1D, 0x63, 0x85, 0x3C,
    0xEE, 0x03, 0x19, 0x3D, 0xF1, 0x2C, 0x19, 0xBE, 0xA0, 0x89, 0x31, 0xBE, 0xC5, 0xF4, 0x89, 0xBC,
    0x69, 0x73, 0x53, 0x3D, 0x4E, 0xEE, 0x0E, 0xBE, 0x42, 0x01, 0xB3, 0x3D, 0x9D, 0x20, 0xC2, 0xBD,
    0xA6, 0xCF, 0x25, 0xBE, 0x83, 0x9D, 0x1D, 0xBD, 0x63, 0xD8, 0x4C, 0xBD, 0xAA, 0xA0, 0x63, 0x3C,
    0x4D, 0xE5, 0xDA, 0xBC, 0x49, 0xB3, 0x80, 0x3D, 0xA6, 0x11, 0x6B, 0xBE, 0xAB, 0xF3, 0xE1, 0xBD,
    0xBC, 0x69, 0xCE, 0xBD, 0x80, 0xB4, 0x89, 0x3D, 0x92, 0xC5, 0x2D, 0xBE, 0xB1, 0xEB, 0x6F, 0xBD,
    0x95, 0x56, 0xCA, 0xBD, 0x7A, 0xD1, 0x35, 0xBE, 0xD3, 0x6E, 0x4A, 0xBE, 0x48, 0xF1, 0x07, 0xBE,
    0xA8, 0x41, 0xFB, 0xBC, 0x66, 0x65, 0x14, 0xBE, 0xFE, 0xFB, 0x1A, 0xBE, 0x0C, 0x91, 0xA6, 0xBD,
    0xF6, 0x7A, 0xEB, 0xBC, 0xDB, 0x31, 0xD3, 0x3D, 0xEC, 0xA9, 0x5C, 0x3D, 0x3C, 0x8A, 0x0C, 0xBE,
    0x77, 0xF6, 0x82, 0x3C, 0x7B, 0xB1, 0x42, 0xBB, 0x57, 0x2E, 0x11, 0x3E, 0x58, 0xCE, 0x3F, 0xBD,
    0xEE, 0xA6, 0xC2, 0xBD, 0xFC, 0x52, 0xF6, 0x3C, 0x56, 0x20, 0xBC, 0xBA, 0x84, 0x62, 0x26, 0xBE,
    0x01, 0xF4, 0x28, 0xBE, 0x8B, 0x0C, 0xB2, 0x3C, 0x83, 0x93, 0xDA, 0x3D, 0x9B, 0x41, 0x2B, 0xBE,
    0x4A, 0x12, 0x1C, 0xBE, 0x61, 0xFC, 0x6A, 0x3D, 0x09, 0xEE, 0x0E, 0x3E, 0x20, 0x16, 0x75, 0xBE,
    0x8D, 0x2B, 0x22, 0xBE, 0x10, 0x1B, 0x04, 0xBE, 0xE8, 0xFC, 0x8A, 0xBC, 0x4D, 0x4F, 0x08, 0xBE,
    0xE1, 0x5B, 0x18, 0xBE, 0xA0, 0x6A, 0x3D, 0xBE, 0xF6, 0x44, 0xF7, 0xBD, 0xB4, 0x20, 0xA4, 0x3D,
    0xB4, 0x09, 0x00, 0x3E, 0x3C, 0x41, 0x86, 0x3C, 0x9D, 0x14, 0x1D, 0x3E, 0xDC, 0x36, 0x19, 0xBE,
    0xBA, 0x57, 0x4F, 0xBE, 0xC9, 0xE8, 0x09, 0xBC, 0x81, 0x81, 0x05, 0xBD, 0xDA, 0xBE, 0xC7, 0xBB,
    0x6D, 0xDA, 0xB8, 0xBD, 0x19, 0x00, 0xFF, 0x3B, 0x39, 0x6F, 0xD9, 0xBD, 0x52, 0x97, 0x89, 0xBC,
    0x62, 0x4D, 0x20, 0xBC, 0xA9, 0x64, 0x2C, 0xBE, 0x21, 0xEF, 0xE4, 0xBD, 0x6B, 0x88, 0xD8, 0xBD,
    0x97, 0x36, 0xEA, 0xBD, 0x8F, 0xBE, 0x9A, 0x3D, 0x45, 0x04, 0xC9, 0x3D, 0x58, 0x0D, 0x36, 0xBE,
    0xB0, 0x8D, 0xB9, 0x3D, 0x4A, 0xBB, 0x43, 0xBE, 0x17, 0x46, 0x42, 0xBE, 0x7B, 0x49, 0xA0, 0x3D,
    0x8D, 0xCE, 0xC4, 0x3D, 0x29, 0xC8, 0x1A, 0x3E, 0x5D, 0xCC, 0xB4, 0xBD, 0x5E, 0x99, 0x07, 0xBE,
    0x3C, 0x80, 0x3B, 0x3B, 0x54, 0xDD, 0x8F, 0x3C, 0xD6, 0x86, 0x54, 0x3D, 0xD6, 0x83, 0x83, 0xBD,
    0x3E, 0x0D, 0xBC, 0xBA, 0x9F, 0xA7, 0x32, 0xBE, 0x4A, 0x56, 0x15, 0x3E, 0x89, 0x2D, 0xF3, 0x3D,
    0xB9, 0xD8, 0x75, 0x3D, 0x92, 0x38, 0xFC, 0xBC, 0x5C, 0x5C, 0x30, 0xBE, 0xA4, 0x6C, 0xF2, 0x3A,
    0x36, 0x14, 0x0C, 0x3D, 0xA1, 0x1B, 0x87, 0xBD, 0x0C, 0xBA, 0xF2, 0xBD, 0x87, 0x45, 0xC0, 0xBB,
    0x91, 0x8C, 0xBE, 0xBD, 0x48, 0x28, 0xC0, 0x3D, 0x5F, 0x0B, 0x1A, 0x3E, 0x59, 0xB1, 0x68, 0xBD,
    0xA3, 0x20, 0xB1, 0x3C, 0x5A, 0x84, 0x12, 0xBE, 0x52, 0xA7, 0xA8, 0x3C, 0xD6, 0x19, 0xD6, 0x3C,
    0xFB, 0x8A, 0x0D, 0x3C, 0x49, 0x26, 0x3B, 0x3D, 0x8B, 0xA4, 0xAF, 0x3D, 0x62, 0x1A, 0x87, 0xBD,
    0x89, 0x40, 0xCA, 0x3D, 0x77, 0xC0, 0x1E, 0x3E, 0x52, 0x05, 0xF7, 0xBD, 0xC8, 0xC3, 0x63, 0xBD,
    0xCA, 0xA6, 0x24, 0xBD, 0x50, 0x0A, 0xC3, 0xBD, 0x43, 0x0C, 0xFB, 0xBD, 0xC9, 0x4A, 0x15, 0xBE,
    0x86, 0xB7, 0x18, 0x3E, 0xBB, 0xB1, 0x0B, 0x3E, 0xCA, 0xBF, 0x51, 0x3D, 0xFA, 0x4B, 0xEA, 0x3B,
    0x58, 0xCD, 0x24, 0xBC, 0xC7, 0x18, 0x80, 0xBE, 0x83, 0xEB, 0xA2, 0xBB, 0x05, 0x22, 0x02, 0x3E,
    0x2A, 0x6A, 0x4A, 0x3E, 0x37, 0xE8, 0x04, 0xBE, 0x4F, 0xF0, 0x11, 0x3E, 0x6E, 0x77, 0x83, 0x3E,
    0x43, 0x45, 0xF2, 0x3D, 0x08, 0x99, 0x4D, 0xBE, 0x2E, 0xDA, 0x88, 0x3D, 0xA0, 0x6C, 0xD7, 0x3D,
    0x41, 0x89, 0x8B, 0x3D, 0xCF, 0x27, 0x02, 0x3E, 0xFF, 0x60, 0x4C, 0xBD, 0xB4, 0x9D, 0x2D, 0x3E,
    0x4B, 0xAE, 0x09, 0x3F, 0xFC, 0x72, 0x5E, 0x3F, 0xAA, 0xA1, 0x22, 0xBE, 0x3B, 0xE8, 0xD5, 0x3D,
    0xF9, 0x9C, 0x0D, 0xBD, 0xAC, 0x9B, 0x53, 0xBD, 0x69, 0xA6, 0x0F, 0x3D, 0xDC, 0x91, 0xA6, 0xBC,
    0x6F, 0x6B, 0xED, 0x3E, 0xFC, 0xAD, 0x34, 0xBE, 0x78, 0xBC, 0xE7, 0x3D, 0x03, 0x1D, 0xDA, 0xBE,
    0x8D, 0x2A, 0x18, 0x3E, 0x4C, 0x26, 0xD2, 0xBD, 0x94, 0x41, 0x26, 0xBE, 0xDA, 0x35, 0x0F, 0x3E,
    0x26, 0xB2, 0x24, 0xBE, 0x70, 0xF1, 0xC8, 0xBD, 0x30, 0x6F, 0x67, 0xBE, 0xAD, 0xF5, 0x24, 0xBE,
    0x0D, 0x2A, 0x24, 0xBD, 0xC5, 0x40, 0xFC, 0xBD, 0xBF, 0x9A, 0x0B, 0xBD, 0xD5, 0xF0, 0x69, 0x3D,
    0x56, 0xB8, 0xFC, 0x3C, 0x98, 0x33, 0xAB, 0x3D, 0x8E, 0xAE, 0x31, 0x3E, 0x93, 0xE0, 0x28, 0xBE,
    0x3D, 0xF3, 0x05, 0x3E, 0xD4, 0x68, 0x35, 0x3C, 0x04, 0x41, 0x23, 0x3E, 0xD0, 0xB7, 0xD3, 0x3D,
    0x6D, 0x11, 0x7A, 0x3D, 0x28, 0xCD, 0xA6, 0xBC, 0x87, 0x89, 0xA5, 0xBC, 0x17, 0x54, 0x4A, 0xBE,
    0xA2, 0xE6, 0x78, 0x3D, 0xBE, 0xB3, 0x6F, 0x3D, 0x44, 0xD7, 0x0E, 0xBE, 0xE3, 0x81, 0xA0, 0xBC,
    0xDB, 0xF5, 0x63, 0x3D, 0x1B, 0x14, 0x6B, 0xBE, 0x9D, 0xC1, 0x52, 0xBE, 0xEC, 0xFA, 0x83, 0xBC,
    0x53, 0x43, 0x20, 0xBE, 0xBE, 0xA2, 0x1D, 0xBE, 0xF9, 0x82, 0x86, 0x3D, 0xF6, 0xFE, 0xC5, 0xBD,
    0xF4, 0x04, 0x2B, 0x3E, 0xE5, 0x8B, 0x32, 0x3E, 0x7B, 0x25, 0x7C, 0xBC, 0x3C, 0xFE, 0xC4, 0xBC,
    0x52, 0x4F, 0xDC, 0x3C, 0xDE, 0xE9, 0x03, 0xBE, 0x24, 0x91, 0xB8, 0xBD, 0x50, 0xF4, 0xA3, 0x3C,
    0x59, 0x0B, 0x61, 0x3C, 0xE1, 0xF5, 0xD6, 0x39, 0xA8, 0x7B, 0x2B, 0x3E, 0x6B, 0xF6, 0x15, 0xBD,
    0x70, 0xE8, 0x31, 0xBD, 0x28, 0x9C, 0xE0, 0xBD, 0x9A, 0x05, 0x31, 0xBE, 0x0A, 0x7B, 0x9B, 0x3A,
    0xF8, 0x18, 0xF4, 0xBD, 0x1B, 0xEE, 0x9A, 0xBC, 0x53, 0xAC, 0x29, 0xBE, 0x89, 0x0A, 0x21, 0xBC,
    0x26, 0x06, 0x9F, 0x3D, 0x42, 0x7A, 0x29, 0xBD, 0xA4, 0x6A, 0x15, 0x3E, 0x91, 0x0E, 0x45, 0x3D,
    0xB6, 0xEF, 0x95, 0x3D, 0x27, 0x4E, 0x01, 0xBE, 0x26, 0x04, 0x35, 0xBE, 0x1F, 0x99, 0xC2, 0x3D,
    0xAB, 0xBF, 0xC4, 0xBD, 0x36, 0x05, 0x92, 0x3D, 0xBB, 0x6B, 0x18, 0x3E, 0x77, 0xF5, 0xF2, 0x3B,
    0x87, 0xCD, 0x59, 0xBD, 0xE5, 0xCF, 0x15, 0xBE, 0x1C, 0x48, 0x58, 0xBE, 0xBF, 0x1E, 0x8A, 0xBC,
    0x7A, 0x53, 0xD5, 0xBE, 0x43, 0xE6, 0x89, 0x3D, 0x08, 0x59, 0x19, 0x3D, 0xB6, 0x4C, 0x82, 0xBF,
    0xFD, 0x60, 0x0B, 0x3E, 0x1F, 0x50, 0x8B, 0x3C, 0x77, 0x1A, 0x21, 0xBE, 0x80, 0xBC, 0x33, 0xBD,
    0xC8, 0x09, 0x1D, 0xBD, 0xCE, 0x68, 0xF0, 0x3B, 0x23, 0x9F, 0x0D, 0xBE, 0x10, 0x53, 0x9C, 0x3D,
    0x9E, 0xB4, 0x07, 0xBF, 0x0D, 0xEC, 0xA6, 0xBF, 0x13, 0x82, 0xFD, 0x3D, 0xB8, 0x0F, 0x36, 0x3C,
    0xF4, 0x9F, 0x46, 0xBD, 0x4E, 0xE0, 0x1F, 0xBE, 0x91, 0xA3, 0xDD, 0x3D, 0xF0, 0x9C, 0x3F, 0xBE,
    0x0B, 0x78, 0xCF, 0xBE, 0x96, 0x6F, 0x50, 0xBE, 0x0A, 0x14, 0x34, 0x3E, 0xE9, 0x7E, 0x03, 0x3D,
    0xA6, 0xFB, 0x2C, 0xBE, 0x74, 0x7D, 0x2D, 0x3E, 0x4E, 0x5C, 0xDA, 0xBD, 0xF9, 0x47, 0xC5, 0xBD,
    0xB6, 0xCD, 0x11, 0x3D, 0xC4, 0xEE, 0xFC, 0xBE, 0x19, 0x7C, 0x03, 0x3D, 0x2D, 0x44, 0x3A, 0x3E,
    0x8A, 0xF1, 0xB8, 0x3E, 0xEB, 0xB6, 0xD7, 0xBA, 0xEF, 0x62, 0x7D, 0x3E, 0x26, 0x47, 0xA3, 0x3E,
    0xE3, 0x6F, 0x0B, 0x3E, 0x0B, 0x7D, 0xCB, 0xBC, 0x0C, 0x3B, 0x29, 0x3E, 0xE4, 0x7E, 0x04, 0xBE,
    0x43, 0x86, 0xF4, 0xBD, 0x6E, 0x8F, 0x72, 0x3E, 0xE1, 0x08, 0x96, 0x3D, 0xE4, 0x63, 0x06, 0xBE,
    0x1D, 0xF5, 0x1C, 0x3F, 0xF9, 0xA5, 0xDC, 0x3F, 0xD4, 0x31, 0x72, 0x3E, 0x0E, 0x00, 0xF8, 0xBC,
    0xE2, 0x61, 0xC6, 0xBD, 0xB6, 0x8C, 0x53, 0xBD, 0x26, 0xB9, 0xAC, 0x3E, 0xDF, 0x50, 0x19, 0x3E,
    0x85, 0xB2, 0x0F, 0x3F, 0x3E, 0xD9, 0xBB, 0xBE, 0x8D, 0xA0, 0xC5, 0xBD, 0xB7, 0xC7, 0xB0, 0xBE,
    0xE9, 0x7B, 0x97, 0x3D, 0xBB, 0x7F, 0xDE, 0xBC, 0x9D, 0x33, 0x0D, 0x3E, 0x58, 0xF0, 0x83, 0x3D,
    0x8D, 0x85, 0x91, 0xBD, 0xF9, 0x44, 0x8C, 0xBD, 0xFB, 0x83, 0xDB, 0x3C, 0xC5, 0xFC, 0x82, 0xBE,
    0x5C, 0x4B, 0x40, 0xBF, 0x21, 0x3B, 0x46, 0x3D, 0xEE, 0x46, 0x38, 0xBD, 0x90, 0x01, 0xAC, 0xBF,
    0xBF, 0x1A, 0x6A, 0x3C, 0xB9, 0xC7, 0x4A, 0x3D, 0x1F, 0x8E, 0xD4, 0x3C, 0x39, 0xDE, 0x1B, 0xBE,
    0x38, 0x90, 0x2C, 0x3E, 0x7B, 0xBE, 0xA4, 0x3C, 0xBB, 0x79, 0x68, 0x3D, 0xB5, 0xB3, 0x81, 0x3E,
    0xCF, 0xF4, 0x85, 0xBF, 0x9D, 0x0E, 0xDF, 0xBF, 0x35, 0x6C, 0xC8, 0x3D, 0x98, 0xC4, 0x70, 0x3E,
    0x59, 0x46, 0xFC, 0x3B, 0xC0, 0xF5, 0xBC, 0xBC, 0x0B, 0x78, 0x7F, 0xBC, 0xDA, 0x8F, 0x55, 0xBD,
    0x6B, 0x1C, 0xDF, 0xBE, 0xB9, 0xAB, 0x49, 0xBE, 0x1C, 0x43, 0xB6, 0x3D, 0x6C, 0x5B, 0x22, 0xBD,
    0xD2, 0xAF, 0xDC, 0x3D, 0x8A, 0xFD, 0xC1, 0xBC, 0x12, 0x69, 0xC0, 0xBD, 0x2E, 0x7F, 0x98, 0x3D,
    0x56, 0x0E, 0x3E, 0x3D, 0x51, 0xF8, 0xDD, 0x3D, 0x6F, 0xF3, 0x11, 0xBC, 0xC6, 0x25, 0x9A, 0xBC,
    0x47, 0x8A, 0x11, 0x3E, 0x9B, 0x48, 0xD1, 0xBD, 0x32, 0x05, 0xD6, 0x3C, 0xF2, 0x84, 0x72, 0xBD,
    0xE1, 0x4B, 0xFF, 0x3D, 0x2A, 0xC3, 0xD2, 0xBC, 0xC3, 0xB1, 0x02, 0xBE, 0x48, 0x6F, 0xCE, 0x3D,
    0xC4, 0xE4, 0xBA, 0xBD, 0xAF, 0xE2, 0x1E, 0x3D, 0x9C, 0x68, 0x2A, 0x3E, 0x74, 0xDB, 0x7B, 0xBD,
    0xCE, 0x96, 0x2E, 0xB9, 0xB7, 0x94, 0x18, 0x3E, 0x22, 0x67, 0xA7, 0x3D, 0xAD, 0xBA, 0x09, 0xBE,
    0x85, 0xE4, 0xB2, 0x3D, 0xE8, 0x66, 0x28, 0x3D, 0x55, 0xB3, 0x27, 0x3E, 0x27, 0x9C, 0xB2, 0xBD,
    0x07, 0x68, 0xB8, 0xBD, 0x29, 0xA9, 0x7F, 0x3D, 0x44, 0xF6, 0x04, 0xBC, 0x68, 0x83, 0x4B, 0xBD,
    0xB7, 0xE2, 0x46, 0x3D, 0x1F, 0x90, 0x17, 0xBD, 0xB8, 0x0A, 0xA8, 0x3D, 0xCE, 0x3F, 0x32, 0xBE,
    0x87, 0xF8, 0xB1, 0x3D, 0x2D, 0x4E, 0x57, 0xBC, 0x13, 0xCB, 0x71, 0x3F, 0x0B, 0xF8, 0x15, 0xBE,
    0xC5, 0x0E, 0x12, 0xBF, 0xBA, 0xDD, 0x6F, 0xBD, 0x23, 0x10, 0x60, 0xBC, 0x9E, 0x2C, 0x77, 0xBF,
    0x84, 0x1B, 0x21, 0xBE, 0xC0, 0x85, 0x7E, 0xBD, 0x25, 0x81, 0xB3, 0xBD, 0x45, 0x5A, 0xEB, 0xBD,
    0xF5, 0xEC, 0x9E, 0xBD, 0x94, 0xD5, 0x10, 0x3E, 0xD0, 0xEB, 0x07, 0xBE, 0x04, 0xD1, 0x0D, 0x3E,
    0x4A, 0xC4, 0x56, 0xBF, 0x22, 0xFE, 0x96, 0xBF, 0xA4, 0x02, 0x59, 0x3E, 0xE9, 0x71, 0x93, 0x3E,
    0xE3, 0xD9, 0x1A, 0x3E, 0x19, 0x6E, 0x09, 0x3C, 0x0E, 0x04, 0x14, 0xBE, 0x36, 0x0C, 0xBA, 0x3D,
    0x0B, 0x70, 0x4B, 0xBF, 0x47, 0x5A, 0xC7, 0x3D, 0x2C, 0x2C, 0x17, 0x3D, 0x05, 0x12, 0xA4, 0xBD,
    0xC3, 0x1E, 0x78, 0xBD, 0x5F, 0xE5, 0x3F, 0x3C, 0x5E, 0x45, 0x04, 0xBE, 0xE1, 0x83, 0xB7, 0x3D,
    0x40, 0x99, 0xA4, 0xBE, 0xAC, 0xD1, 0x1A, 0x3E, 0x00, 0x0A, 0x05, 0x3C, 0x50, 0xD2, 0x28, 0xBD,
    0xAB, 0xCB, 0xE5, 0x3D, 0x2D, 0x6F, 0xB4, 0x3C, 0x0A, 0x1E, 0x64, 0xBE, 0xEC, 0x77, 0xE1, 0x3D,
    0xF9, 0xD1, 0x96, 0x3D, 0x11, 0x13, 0x10, 0xBD, 0x71, 0xF3, 0x03, 0x3E, 0xB2, 0x91, 0x09, 0xBE,
    0x4F, 0x83, 0x87, 0xBD, 0x69, 0xB7, 0x54, 0xBE, 0xCC, 0x29, 0xF6, 0xBD, 0xC1, 0xFF, 0x56, 0xBD,
    0x62, 0x8A, 0xB4, 0x3C, 0xED, 0xD2, 0x5D, 0xBD, 0x19, 0x84, 0xB0, 0xBF, 0x2D, 0x92, 0xBD, 0x3D,
    0x6B, 0x61, 0xDE, 0xBC, 0x22, 0x66, 0x13, 0x3D, 0x91, 0x52, 0xF1, 0x3C, 0xA0, 0x99, 0x5E, 0xBE,
    0x18, 0x16, 0x16, 0x3D, 0x2B, 0xBE, 0x2B, 0x3E, 0xA5, 0x49, 0x87, 0xBD, 0xE7, 0x60, 0x4F, 0x3E,
    0x98, 0x78, 0xC6, 0x3D, 0x2F, 0x43, 0xB0, 0xBE, 0x44, 0xD7, 0x90, 0xBB, 0x27, 0x8B, 0x50, 0x3E,
    0xD5, 0xC6, 0x10, 0x3D, 0xC2, 0x16, 0x91, 0xBE, 0x5F, 0xB7, 0x82, 0xBD, 0xCC, 0x86, 0xE0, 0x3C,
    0x01, 0x1D, 0x82, 0x3E, 0x5D, 0x10, 0xC6, 0x3D, 0x31, 0x32, 0x15, 0xBD, 0x29, 0xF8, 0x60, 0x3D,
    0x8F, 0xD7, 0xD6, 0x3D, 0x84, 0x6E, 0x02, 0x3E, 0xFE, 0xC8, 0xD3, 0x3D, 0x89, 0xF9, 0x8A, 0x3D,
    0xE1, 0xBF, 0x33, 0x3E, 0x51, 0x2E, 0xFF, 0x3C, 0x45, 0x37, 0xDC, 0xBD, 0x92, 0xF3, 0x9D, 0xBD,
    0xFB, 0x7B, 0x5A, 0x3E, 0xBD, 0x33, 0x8B, 0x3F, 0x1C, 0x54, 0x8F, 0x3E, 0xD4, 0x87, 0x2D, 0xBD,
    0x37, 0x4D, 0x91, 0x3C, 0xE8, 0x6F, 0x27, 0x3E, 0x82, 0xE0, 0xEC, 0x3D, 0xFB, 0xE8, 0x19, 0x3D,
    0xC9, 0xEF, 0x8E, 0x3E, 0xFA, 0xB9, 0x05, 0xBE, 0x0F, 0x03, 0x91, 0x3D, 0xF8, 0x70, 0x5B, 0xBE,
    0xCF, 0x35, 0x02, 0xBE, 0x34, 0x9D, 0x3F, 0xBD, 0xED, 0x73, 0xED, 0xBD, 0x35, 0x47, 0x4B, 0xBD,
    0x93, 0xA3, 0x55, 0x3E, 0xEE, 0x52, 0xE0, 0xBE, 0xAE, 0x3E, 0xFC, 0xBD, 0x2E, 0xA2, 0x17, 0x3E,
    0xBA, 0x1A, 0xF2, 0x3E, 0xE3, 0x79, 0xC6, 0xBD, 0x14, 0x5B, 0x88, 0x3D, 0x54, 0x87, 0xFF, 0x3E,
    0xEE, 0xCA, 0xB7, 0xBC, 0xDB, 0xCE, 0xD9, 0x3C, 0xCE, 0xBC, 0xE2, 0xBC, 0xE7, 0x6D, 0xAA, 0x3B,
    0xA1, 0x46, 0xA9, 0xBD, 0x11, 0x7D, 0x4F, 0xBD, 0xA8, 0x9F, 0x88, 0x3D, 0x26, 0xAF, 0xA8, 0x3D,
    0xEF, 0x7F, 0x08, 0x3F, 0x00, 0x75, 0x7C, 0x3F, 0x89, 0xCC, 0x12, 0x3E, 0x9F, 0xF4, 0x6B, 0x3D,
    0xF4, 0xDE, 0x12, 0xBE, 0xE4, 0xC2, 0x71, 0xBD, 0x1B, 0xFC, 0x44, 0xBD, 0x52, 0xEE, 0xF3, 0xBD,
    0xC6, 0x15, 0xC9, 0x3E, 0x2C, 0xD9, 0xF0, 0xBD, 0xE2, 0x53, 0x21, 0x3E, 0x3D, 0x23, 0x59, 0xBE,
    0x10, 0xF0, 0x28, 0xBC, 0x06, 0x8F, 0x50, 0xBE, 0x5B, 0x41, 0xD8, 0x3D, 0x1D, 0xB8, 0x2D, 0x3E,
    // Bias
    0x1D, 0xA3, 0xB6, 0xBD, 0x0C, 0x96, 0x61, 0xBE, 0x48, 0xC0, 0x91, 0x3D, 0xD3, 0x43, 0x1A, 0xBE,
    0xFE, 0xFC, 0x1E, 0xBE, 0x93, 0x8F, 0x45, 0x3C, 0x49, 0x70, 0x57, 0x3D, 0xA8, 0x7E, 0xFD, 0xBD,
    0xD3, 0xE7, 0x5C, 0x3D, 0xC0, 0x6C, 0x9F, 0xBE, 0x94, 0x37, 0x33, 0x3E, 0x96, 0x63, 0x14, 0xBE,
    0x0E, 0x57, 0x0D, 0x3F, 0xD3, 0xC3, 0xC4, 0xBD, 0xA7, 0xD6, 0x26, 0x3D, 0x45, 0x39, 0x77, 0xBE,

    // Layer Type: ReLU Activation
    0x01, 0x00, 0x00, 0x00,
    // Input dimensions and shape
    0x01, 0x00, 0x00, 0x00, 0x10, 0x00, 0x00, 0x00,

    // Layer Type: Linear Layer
    0x00, 0x00, 0x00, 0x00,
    // Output size and Input size
    0x01, 0x00, 0x00, 0x00, 0x10, 0x00, 0x00, 0x00,
    // Weight
    0x98, 0x72, 0x3C, 0xBD, 0xFA, 0x78, 0x6D, 0x3D, 0x6D, 0x6E, 0x03, 0xBE, 0x1F, 0x18, 0x86, 0xBD,
    0xD8, 0x79, 0x45, 0xBD, 0xC4, 0x92, 0x12, 0x3E, 0x32, 0xE0, 0x58, 0xBD, 0x74, 0x04, 0x46, 0x3E,
    0x1E, 0x90, 0x95, 0xBE, 0xCB, 0x4C, 0x0D, 0x3F, 0x76, 0x69, 0x9A, 0xBE, 0xBC, 0x4F, 0xC3, 0xBD,
    0x3F, 0x25, 0xFF, 0xBE, 0x9A, 0xC5, 0xED, 0xBE, 0x60, 0xC8, 0x8C, 0x3D, 0xD6, 0x47, 0xA3, 0x3E,
    // Bias
    0x1D, 0x43, 0x9C, 0xBE,
};

unsigned int sine_model_len = sizeof(sine_model);

#endif // SINE_MODEL_H
