#ifndef SINE_MODEL_H
#define SINE_MODEL_H

unsigned char sine_model[] = {
    // Number of Layers
    0x05, 0x00, 0x00, 0x00,
    // Max workspace arena
    0x20, 0x00, 0x00, 0x00,

    // Layer Type: Fully Connected Layer
    0x00, 0x00, 0x00, 0x00,
    // Input size and Output size
    0x01, 0x00, 0x00, 0x00, 0x20, 0x00, 0x00, 0x00,
    // Weights
    0xBA, 0xAB, 0x27, 0xBE, 0x20, 0x81, 0x11, 0xBC, 0xD7, 0x55, 0xD3, 0xBE, 0x27, 0xA0, 0xBE, 0xBE,
    0xC0, 0x22, 0xD0, 0x3C, 0x1D, 0x17, 0xA6, 0x3E, 0x90, 0x40, 0xE1, 0xBD, 0x8C, 0x34, 0x86, 0xBE,
    0x54, 0x46, 0xD3, 0x3E, 0x44, 0xD5, 0x8D, 0xBE, 0xE1, 0x37, 0x10, 0x3E, 0x23, 0x7C, 0xE0, 0x3D,
    0xB6, 0x8B, 0x69, 0x3E, 0x89, 0xDC, 0x9E, 0x3E, 0x33, 0x1C, 0xCA, 0x3E, 0x7A, 0x2A, 0xBA, 0xBE,
    0xDB, 0x0C, 0xEB, 0x3D, 0xD6, 0x8E, 0xAF, 0x3E, 0x7C, 0xC7, 0xD3, 0x3E, 0xB0, 0xD1, 0x82, 0x3E,
    0x2C, 0xB4, 0xB1, 0xBE, 0x6B, 0x20, 0x04, 0x3E, 0x59, 0x6C, 0xA9, 0x3D, 0xE6, 0x31, 0x92, 0x3E,
    0x80, 0xB5, 0xDD, 0xBB, 0xD8, 0x82, 0xCC, 0x3D, 0x28, 0x4D, 0xAF, 0xBC, 0x63, 0x00, 0x8C, 0x3E,
    0xDA, 0x8F, 0xDD, 0x3E, 0x32, 0x06, 0xCE, 0xBE, 0x66, 0x13, 0x73, 0xBE, 0xF7, 0xE5, 0x0C, 0x3E,
    // Biases
    0x00, 0x00, 0x00, 0x00, 0x00, 0x00, 0x00, 0x00, 0x00, 0x00, 0x00, 0x00, 0x00, 0x00, 0x00, 0x00,
    0x3C, 0xDE, 0x1F, 0x3E, 0x0E, 0x65, 0xAA, 0xBD, 0x00, 0x00, 0x00, 0x00, 0x00, 0x00, 0x00, 0x00,
    0x21, 0xC4, 0xA6, 0x3D, 0x00, 0x00, 0x00, 0x00, 0x24, 0x59, 0x02, 0xBB, 0xFC, 0x9D, 0xB9, 0x3E,
    0xCC, 0x97, 0x8B, 0xBE, 0x40, 0x0A, 0x35, 0xBF, 0x2E, 0x4E, 0xF3, 0xBD, 0x00, 0x00, 0x00, 0x00,
    0xC1, 0x26, 0x0C, 0xBE, 0x90, 0x6A, 0x8E, 0xBE, 0x60, 0xA8, 0x63, 0xBE, 0x93, 0x6D, 0x9C, 0xBE,
    0x00, 0x00, 0x00, 0x00, 0x09, 0x18, 0x8D, 0x3E, 0xF6, 0x1F, 0xDE, 0x3E, 0x98, 0x7F, 0xA9, 0x3D,
    0x00, 0x00, 0x00, 0x00, 0x6D, 0xE3, 0x55, 0xBE, 0x62, 0x3A, 0x6C, 0x3F, 0xD5, 0x64, 0x7E, 0x3E,
    0x52, 0x85, 0x6E, 0xBE, 0x00, 0x00, 0x00, 0x00, 0x00, 0x00, 0x00, 0x00, 0x38, 0x76, 0x02, 0x3F,

    // Layer Type: ReLU Activation
    0x01, 0x00, 0x00, 0x00,
    // Input dimensions and shape
    0x01, 0x00, 0x00, 0x00, 0x20, 0x00, 0x00, 0x00,

    // Layer Type: Fully Connected Layer
    0x00, 0x00, 0x00, 0x00,
    // Input size and Output size
    0x20, 0x00, 0x00, 0x00, 0x10, 0x00, 0x00, 0x00,
    // Weights
    0xFA, 0x97, 0x7A, 0xBE, 0x1C, 0x2F, 0x31, 0xBE, 0xAB, 0xA2, 0x1E, 0xBE, 0x16, 0xD7, 0x37, 0x3E,
    0x66, 0x6A, 0x66, 0x3E, 0x0C, 0xA0, 0xF3, 0x3D, 0x98, 0xD1, 0x97, 0xBD, 0x70, 0x9A, 0xF0, 0x3D,
    0x80, 0xDA, 0x9A, 0x3C, 0xC0, 0x50, 0xF2, 0xBD, 0x82, 0x24, 0x31, 0x3E, 0xD1, 0x3D, 0x93, 0x3E,
    0xC8, 0x41, 0xE8, 0x3D, 0x7F, 0x3E, 0x80, 0x3E, 0x4C, 0x80, 0xAC, 0xBE, 0x34, 0x4A, 0xA0, 0xBD,
    0xAE, 0x85, 0x66, 0x3E, 0x6A, 0x6E, 0x2A, 0x3E, 0xE8, 0x6A, 0x10, 0x3D, 0x7C, 0x63, 0x86, 0x3D,
    0x00, 0xBE, 0x97, 0x3C, 0x50, 0x2C, 0x97, 0x3C, 0x76, 0xAA, 0x45, 0x3E, 0x04, 0x4A, 0xB2, 0xBD,
    0x2A, 0x9B, 0x83, 0xBE, 0x21, 0x78, 0xB3, 0x3E, 0x3C, 0x5D, 0x81, 0xBE, 0xEE, 0x09, 0x0D, 0x3E,
    0x71, 0x78, 0x88, 0x3E, 0x71, 0xDF, 0xB4, 0x3E, 0xC8, 0xA4, 0x92, 0x3D, 0xAB, 0x3B, 0xAE, 0x3E,
    0xFB, 0x1D, 0x5C, 0xBE, 0x5C, 0xD6, 0x8F, 0xBD, 0x4C, 0xD7, 0x80, 0xBD, 0xDD, 0xFF, 0x91, 0x3E,
    0xE8, 0xE9, 0xA7, 0xBE, 0xC6, 0xF9, 0x62, 0x3E, 0x06, 0x3E, 0x46, 0xBE, 0xBC, 0xA5, 0xA8, 0xBD,
    0x16, 0xA9, 0x7C, 0x3E, 0x60, 0x98, 0xD6, 0x3C, 0x80, 0xEA, 0x64, 0x3C, 0xBB, 0xDB, 0x90, 0x3E,
    0xF0, 0xD8, 0x2A, 0xBD, 0x6C, 0x3E, 0xD6, 0x3D, 0x4F, 0xD9, 0xB4, 0xBE, 0x4C, 0xBD, 0x82, 0xBE,
    0x20, 0x21, 0x7B, 0x3C, 0x30, 0x22, 0x99, 0xBC, 0x00, 0xA0, 0x19, 0xB9, 0x87, 0xD2, 0x5D, 0xBE,
    0x96, 0x76, 0x37, 0xBE, 0xB4, 0x70, 0x90, 0xBE, 0xDE, 0x06, 0x68, 0xBE, 0x24, 0xD3, 0xB1, 0x3D,
    0xD8, 0x47, 0x1F, 0x3D, 0x52, 0x24, 0x6D, 0xBE, 0xAD, 0x1D, 0xB1, 0x3E, 0x00, 0x3F, 0x73, 0x3D,
    0x85, 0xD1, 0xB4, 0xBE, 0xDF, 0xAB, 0x9A, 0x3E, 0xFC, 0x79, 0xE5, 0x3D, 0x72, 0x07, 0x78, 0xBE,
    0xB1, 0x8F, 0xB6, 0xBE, 0x66, 0x39, 0xB1, 0x3E, 0xEC, 0x64, 0x97, 0xBD, 0xCD, 0x5E, 0x13, 0x3E,
    0x19, 0xBF, 0xB9, 0x3E, 0x8F, 0x69, 0x84, 0xBE, 0x1F, 0xF7, 0xDA, 0xBC, 0xDA, 0x1E, 0x3C, 0xBB,
    0x19, 0xF8, 0x05, 0xBE, 0x4A, 0x3D, 0x5B, 0x3E, 0x2C, 0x2E, 0x86, 0xBE, 0x5F, 0x20, 0xE1, 0xBE,
    0x88, 0xB8, 0xA2, 0xBE, 0x19, 0x43, 0x71, 0xBE, 0xFC, 0x36, 0x92, 0xBE, 0x30, 0x95, 0xAF, 0xBD,
    0xE1, 0x5B, 0xA2, 0xBE, 0x5A, 0x81, 0xA0, 0x3E, 0xE6, 0xB0, 0xB2, 0xBE, 0xB2, 0xFF, 0x05, 0xBE,
    0x4B, 0xA1, 0xAD, 0x3E, 0xE9, 0x75, 0xF3, 0x3D, 0x9B, 0x87, 0x45, 0xBE, 0x32, 0x83, 0x64, 0xBF,
    0x3B, 0xBA, 0xB7, 0xBE, 0x89, 0x95, 0x21, 0x3E, 0x61, 0x72, 0xC8, 0x3D, 0x41, 0xF4, 0x6E, 0x3D,
    0xEE, 0x2A, 0x60, 0xBE, 0xED, 0x9E, 0x43, 0x3E, 0x54, 0x9B, 0x85, 0xBD, 0x94, 0x43, 0xD0, 0x3D,
    0x6E, 0x63, 0x1A, 0x3E, 0x98, 0xFA, 0x42, 0x3D, 0xC0, 0x3A, 0xF5, 0x3D, 0xE9, 0xDD, 0x85, 0x3E,
    0xB6, 0x8A, 0x66, 0xBE, 0xD3, 0x05, 0x91, 0xBE, 0x0A, 0xDA, 0x2F, 0xBE, 0x9C, 0x3E, 0x7B, 0xBE,
    0x58, 0x33, 0xCC, 0x3D, 0xAA, 0x8E, 0x3C, 0x3E, 0x32, 0xB4, 0x7F, 0x3E, 0x0A, 0xDF, 0x59, 0x3E,
    0x70, 0xA7, 0x37, 0x3D, 0xFE, 0xFB, 0xF4, 0xBD, 0x63, 0x93, 0x81, 0x3E, 0x9C, 0xCE, 0x56, 0xBE,
    0xEC, 0x96, 0xEC, 0x3D, 0x9C, 0xA1, 0xA8, 0xBE, 0xB7, 0x25, 0xAB, 0xBE, 0xC8, 0x61, 0x37, 0xBD,
    0x14, 0x9F, 0x4A, 0xBE, 0xE9, 0xF5, 0x19, 0xBE, 0xCE, 0x39, 0x78, 0x3E, 0x90, 0x19, 0x14, 0x3E,
    0x58, 0xDC, 0xA5, 0x3D, 0x24, 0xFB, 0x83, 0xBE, 0xA0, 0x7E, 0x24, 0xBC, 0xC8, 0x9B, 0x10, 0xBD,
    0xD0, 0x2B, 0x89, 0x3D, 0xB2, 0x08, 0x3A, 0x3E, 0x41, 0xD4, 0xA4, 0x3E, 0x02, 0x24, 0x15, 0xBE,
    0x79, 0x11, 0xA8, 0x3E, 0x02, 0x71, 0x04, 0x3E, 0xE7, 0xA3, 0x1A, 0x3E, 0xB0, 0x9E, 0x07, 0x3D,
    0xED, 0x2B, 0x3F, 0x3E, 0xC8, 0xAE, 0x91, 0x3E, 0xBF, 0xD8, 0x2F, 0x3E, 0xE7, 0xFB, 0x7C, 0xBE,
    0x4B, 0x99, 0xC1, 0xBC, 0xAF, 0xAC, 0xB8, 0xBE, 0xE4, 0x5E, 0x3D, 0xBE, 0xFB, 0xAC, 0xDC, 0x3E,
    0xB0, 0x45, 0xAA, 0x3D, 0xC0, 0x4A, 0x8A, 0x3E, 0x01, 0xA9, 0x73, 0xBE, 0xFE, 0x94, 0x19, 0xBE,
    0x03, 0x93, 0x84, 0x3E, 0xC4, 0x58, 0xC1, 0x3D, 0x70, 0xFE, 0xF5, 0x3D, 0x6A, 0xE0, 0x42, 0x3E,
    0x2A, 0x7C, 0x7C, 0xBE, 0x38, 0x88, 0x0D, 0x3E, 0x12, 0xE6, 0x4C, 0x3E, 0xA0, 0x16, 0x95, 0xBD,
    0x52, 0xB8, 0x1A, 0x3E, 0x6B, 0x49, 0x3F, 0xBE, 0x80, 0x72, 0xAB, 0x3C, 0x7B, 0x14, 0x83, 0xBE,
    0x40, 0xD7, 0xB0, 0xBC, 0x64, 0xB3, 0xA0, 0xBD, 0x58, 0x2C, 0xF8, 0x3D, 0x9C, 0x99, 0x50, 0xBE,
    0xDA, 0xF0, 0xE3, 0xBC, 0xAD, 0x92, 0x81, 0xBE, 0x15, 0x92, 0x6F, 0xBE, 0x50, 0x4C, 0xA9, 0x3C,
    0x44, 0x44, 0x88, 0xBA, 0xE6, 0x99, 0x45, 0x3E, 0xC6, 0x75, 0xBA, 0x3E, 0x4F, 0x4B, 0xD7, 0x3D,
    0x43, 0x95, 0xAD, 0x3E, 0xFD, 0x9E, 0x91, 0xBE, 0xA2, 0x61, 0x57, 0xBD, 0x15, 0x19, 0xD2, 0x3D,
    0x0F, 0xAA, 0x4A, 0xBE, 0x4C, 0xFB, 0x5B, 0x3E, 0x64, 0x30, 0x86, 0x3D, 0x83, 0x0C, 0x62, 0x3E,
    0x72, 0x74, 0x47, 0x3C, 0xE9, 0x1F, 0x9C, 0x3E, 0x79, 0x4F, 0xE5, 0x3D, 0xA5, 0xD2, 0xC2, 0xBD,
    0x14, 0xFF, 0xB5, 0x3E, 0xFA, 0x05, 0x1B, 0xBE, 0xC2, 0x63, 0x54, 0x3E, 0x69, 0x6F, 0xF7, 0xBE,
    0x50, 0xA7, 0x0E, 0x3E, 0x85, 0x15, 0x0F, 0x3E, 0x4E, 0x53, 0x56, 0xBE, 0x6A, 0xA5, 0xA2, 0x3E,
    0x18, 0xB6, 0x99, 0x3D, 0x27, 0xCC, 0x1C, 0x3E, 0x42, 0xED, 0x7C, 0x3E, 0x65, 0x27, 0x01, 0xBB,
    0x88, 0x42, 0x1E, 0x3E, 0xC6, 0x7C, 0x4B, 0xBE, 0x08, 0xBF, 0x1F, 0xBE, 0x9D, 0x83, 0x0A, 0xBE,
    0x7E, 0x7A, 0xC7, 0x3B, 0x4A, 0x0F, 0x2F, 0x3E, 0x8C, 0x4B, 0xB1, 0xBD, 0xFC, 0x2B, 0xAE, 0x3E,
    0xC5, 0x09, 0x9C, 0xBD, 0xD7, 0x07, 0xB1, 0xBE, 0xE4, 0x2C, 0xAD, 0x3E, 0x6C, 0xDA, 0x5A, 0xBE,
    0x49, 0x26, 0xA8, 0x3E, 0xEA, 0x08, 0x96, 0x3D, 0x40, 0x49, 0x4E, 0x3C, 0xE8, 0xBA, 0xFA, 0xBC,
    0xAD, 0x99, 0x72, 0xBE, 0x01, 0xCF, 0xD0, 0xBD, 0x6D, 0x98, 0x9A, 0x3E, 0x7D, 0xF7, 0x56, 0x3E,
    0x4F, 0x2F, 0x09, 0xBE, 0x9B, 0x85, 0xF1, 0x3E, 0xFD, 0x0B, 0x7D, 0xBF, 0x29, 0xA9, 0x83, 0x3E,
    0x60, 0xBA, 0x05, 0xBF, 0x6F, 0xB4, 0xAD, 0xBE, 0xC0, 0x77, 0x42, 0x3F, 0x1D, 0xC6, 0xBD, 0xBF,
    0xC8, 0x75, 0xA0, 0xBD, 0x1F, 0xCB, 0x30, 0x3D, 0xB9, 0xCD, 0x5B, 0xBE, 0xA8, 0x07, 0x74, 0xBD,
    0xCA, 0x0D, 0xB6, 0xBE, 0xA7, 0xBF, 0x4A, 0xBE, 0x84, 0x79, 0x24, 0x3E, 0xD0, 0x21, 0xD4, 0x3C,
    0xE9, 0x3A, 0x82, 0xBD, 0x50, 0x1A, 0xA4, 0xBE, 0x43, 0x79, 0x29, 0xBE, 0xE3, 0x0E, 0x3B, 0xBE,
    0x96, 0xAC, 0x94, 0xBE, 0x1C, 0x98, 0xCA, 0xBD, 0xC0, 0x87, 0x4B, 0x3E, 0x67, 0xD1, 0x68, 0x3E,
    0xE5, 0xD2, 0x5F, 0xBE, 0x86, 0xFE, 0x95, 0x3E, 0x32, 0x04, 0x70, 0xBE, 0xF3, 0xBA, 0xBB, 0xBE,
    0xBE, 0x8F, 0xAC, 0xBE, 0x85, 0x60, 0x95, 0x3E, 0x2C, 0x30, 0xA3, 0x3D, 0x80, 0x35, 0x6B, 0x3D,
    0x42, 0x4A, 0x80, 0xBE, 0x40, 0xB8, 0x75, 0xBC, 0xCB, 0x54, 0x9D, 0x3E, 0x81, 0x9A, 0x13, 0xBE,
    0xB0, 0xB0, 0x42, 0x3D, 0x56, 0x0E, 0xE0, 0xBD, 0x0B, 0x42, 0xAC, 0x3E, 0x78, 0x0A, 0x3D, 0x3D,
    0xBA, 0xA5, 0x4F, 0x3E, 0x0B, 0xE5, 0x9B, 0x3E, 0xFB, 0x0D, 0x71, 0xBE, 0xA5, 0x5A, 0xAE, 0x3E,
    0x06, 0x25, 0x7D, 0x3E, 0x34, 0xE7, 0x75, 0x3D, 0x95, 0x16, 0x71, 0xBD, 0xB0, 0x8A, 0xA9, 0xBE,
    0x8F, 0x37, 0x1C, 0xBE, 0x2C, 0x81, 0xFB, 0xBD, 0x2E, 0xBF, 0x0D, 0xBE, 0x46, 0xB2, 0x30, 0x3F,
    0x3E, 0x70, 0x01, 0x3E, 0xF0, 0xCD, 0x98, 0xBD, 0x1E, 0x8B, 0x52, 0x3E, 0xC3, 0x24, 0x7C, 0x3E,
    0x40, 0x5C, 0x37, 0xBC, 0xC8, 0xAF, 0x69, 0x3E, 0x36, 0xF4, 0x68, 0x3E, 0x34, 0x8F, 0xB7, 0xBD,
    0x8C, 0xCA, 0x24, 0x3E, 0xEB, 0x7E, 0xF8, 0xBD, 0xDC, 0xC0, 0xBF, 0xBD, 0xAB, 0xA4, 0x3C, 0xBE,
    0x94, 0xA0, 0xBA, 0x3D, 0x88, 0x37, 0xB0, 0x3E, 0x8E, 0x5F, 0xDD, 0xBD, 0x70, 0xB6, 0xCE, 0xBE,
    0xFE, 0xDE, 0x9C, 0x3D, 0x13, 0x2C, 0x0B, 0x3E, 0x94, 0x1A, 0x5E, 0x3D, 0xA2, 0x2B, 0xF2, 0xBE,
    0x70, 0x34, 0x2A, 0x3D, 0x81, 0x54, 0x0F, 0xBE, 0x3E, 0x0A, 0x15, 0xBE, 0x6A, 0xAD, 0x4C, 0x3E,
    0x1A, 0xA0, 0x1B, 0xBE, 0xC4, 0x64, 0x56, 0x3E, 0xFF, 0xB8, 0x20, 0x3E, 0xD4, 0x3B, 0xAA, 0xBE,
    0x6E, 0xD8, 0x98, 0xBE, 0xA1, 0xC8, 0x51, 0x3B, 0x6C, 0xB3, 0x88, 0xBE, 0x9D, 0x08, 0x93, 0x3E,
    0xBC, 0xD8, 0xC2, 0x3C, 0xF3, 0x5F, 0x93, 0xBD, 0xCC, 0x98, 0x87, 0x3E, 0xC1, 0x5B, 0x20, 0xBD,
    0x80, 0x6F, 0x8A, 0xBC, 0x69, 0xD7, 0x9B, 0x3E, 0x54, 0x42, 0x71, 0xBE, 0xA8, 0x4B, 0x89, 0xBE,
    0x42, 0x83, 0x94, 0x3E, 0x73, 0x64, 0x4F, 0xBE, 0x75, 0x77, 0x3D, 0xBE, 0x50, 0x73, 0xA7, 0xBC,
    0x20, 0xD4, 0x8C, 0xBC, 0xCA, 0x40, 0x0E, 0x3C, 0x58, 0x9A, 0x93, 0xBD, 0x23, 0x20, 0xAE, 0x3F,
    0x30, 0x40, 0x88, 0x3E, 0xBB, 0x08, 0x45, 0xBE, 0x5F, 0x86, 0xD3, 0x3E, 0x7C, 0xDD, 0x11, 0xBF,
    0xC2, 0x2E, 0x9E, 0xBE, 0x0B, 0x28, 0xBD, 0x3D, 0x87, 0x8E, 0x28, 0xBE, 0x18, 0xEC, 0xE2, 0xBD,
    0x21, 0xA3, 0x01, 0xBE, 0x2C, 0x98, 0x15, 0x3E, 0x94, 0x87, 0xF6, 0x3D, 0x7A, 0x46, 0x51, 0xBE,
    0xD4, 0x1E, 0xA8, 0xBE, 0x9A, 0xA1, 0x34, 0xBE, 0x7A, 0xE9, 0x2D, 0x3E, 0x8F, 0xBA, 0x71, 0xBE,
    0x5A, 0x5D, 0x4B, 0x3E, 0x9E, 0x98, 0x32, 0xBE, 0x55, 0x0C, 0xB3, 0x3E, 0x70, 0x87, 0xB4, 0xBD,
    0xE0, 0xE1, 0xA2, 0xBE, 0x30, 0x3C, 0xB7, 0xBD, 0x56, 0x70, 0x44, 0x3E, 0x14, 0x61, 0xCE, 0x3D,
    0xCF, 0x4C, 0x99, 0x3E, 0xAD, 0x75, 0x27, 0x3E, 0xF0, 0xA4, 0x69, 0xBD, 0x3E, 0x36, 0xF3, 0x3D,
    0xED, 0xC4, 0xD8, 0x3D, 0xBF, 0xC9, 0xAA, 0xBE, 0x2A, 0xD2, 0x56, 0x3E, 0xC8, 0x46, 0x0B, 0xBF,
    0xB4, 0x4B, 0x98, 0xBE, 0xA7, 0x18, 0x05, 0x3E, 0x4F, 0x3F, 0xDC, 0xBD, 0x6D, 0x46, 0x49, 0xBE,
    0x27, 0x6A, 0x1C, 0xBE, 0x67, 0x9C, 0x54, 0xBD, 0x96, 0x53, 0x44, 0x3E, 0x4B, 0xDF, 0x8C, 0x3E,
    0x94, 0x09, 0xAF, 0xBE, 0x5C, 0xFF, 0x15, 0xBE, 0x66, 0x3F, 0x91, 0xBE, 0xCD, 0xD3, 0x99, 0x3E,
    0xFE, 0x12, 0xF5, 0x3D, 0x19, 0x60, 0x8D, 0xBE, 0x1F, 0x86, 0xF6, 0x3E, 0x25, 0xDC, 0x81, 0x3F,
    0x5C, 0x2F, 0xD0, 0x3D, 0x8E, 0x2C, 0x19, 0x3E, 0x59, 0x05, 0x5E, 0xBE, 0x98, 0xB3, 0x8D, 0x3E,
    0x01, 0x3D, 0xA1, 0xBE, 0x81, 0x45, 0xD5, 0x3D, 0xCA, 0x08, 0x14, 0xBE, 0xEF, 0xA4, 0xFD, 0x3D,
    0xBA, 0x3C, 0xA6, 0xBE, 0xAF, 0xFF, 0xAF, 0x3E, 0x5F, 0xBC, 0x65, 0xBD, 0x5D, 0xB9, 0x0D, 0xBE,
    0xD9, 0x2B, 0x80, 0x3E, 0x00, 0x54, 0xB5, 0xBD, 0x9A, 0x24, 0x62, 0xBE, 0x59, 0xDB, 0x2F, 0xBF,
    0xB3, 0xD2, 0x6E, 0x3E, 0x17, 0xCF, 0x65, 0xBE, 0x7C, 0x12, 0x72, 0xBE, 0xCB, 0xCA, 0x5E, 0xBE,
    0xCA, 0x08, 0x29, 0x3E, 0x6E, 0x7F, 0x7D, 0x3C, 0x8F, 0x96, 0x83, 0x3E, 0x58, 0x3E, 0xB2, 0xBD,
    0xDC, 0x47, 0x93, 0xBD, 0x43, 0xA9, 0xA7, 0x3E, 0xA1, 0x2D, 0x1C, 0xBE, 0xF3, 0xFF, 0x89, 0x3E,
    0x3D, 0x63, 0xA0, 0x3E, 0x90, 0x14, 0x69, 0xBE, 0xEC, 0x16, 0x12, 0xBE, 0xA0, 0x55, 0x9A, 0xBE,
    0x8D, 0xC3, 0x58, 0xBE, 0x8E, 0xCD, 0xDA, 0xBD, 0xDC, 0xC8, 0x80, 0xBD, 0x58, 0x46, 0x09, 0x3E,
    0x00, 0xA8, 0xBF, 0x3B, 0x8C, 0xBC, 0x9C, 0x3D, 0x90, 0xD9, 0xA4, 0xBC, 0x8B, 0x55, 0x90, 0xBE,
    0xD1, 0x50, 0xEC, 0x3D, 0x6F, 0x73, 0xB6, 0x3E, 0xBD, 0x06, 0x34, 0xBD, 0xE4, 0xDF, 0x52, 0xBE,
    0xED, 0x02, 0xD6, 0xBC, 0x61, 0x09, 0xAD, 0x3E, 0xFA, 0x85, 0x16, 0xBD, 0xA8, 0xEB, 0xD3, 0x3E,
    0xF3, 0x19, 0x3F, 0xBE, 0xFE, 0x9C, 0x2F, 0x3E, 0x05, 0x51, 0xA7, 0x3E, 0x4A, 0xD9, 0x46, 0x3B,
    0xE7, 0xFD, 0x96, 0xBE, 0x31, 0x5C, 0xAA, 0xBE, 0xC1, 0xED, 0x93, 0xBE, 0x47, 0x77, 0xAB, 0x3D,
    0x58, 0x82, 0x01, 0xBC, 0x5E, 0x48, 0xA8, 0x3D, 0x4C, 0xF1, 0x0F, 0x3E, 0xED, 0x77, 0xA1, 0xBE,
    0xA4, 0x36, 0xE2, 0x3D, 0x40, 0x91, 0x3D, 0xBF, 0x63, 0xB7, 0x16, 0x3F, 0x55, 0x29, 0x7C, 0x3F,
    0x98, 0x8F, 0x12, 0x3E, 0x2E, 0x99, 0xA8, 0xBE, 0x57, 0xC8, 0x74, 0xBF, 0xC0, 0x01, 0x79, 0x3E,
    0x24, 0x6A, 0x83, 0xBE, 0x12, 0x7E, 0xEC, 0xBE, 0xB8, 0xBA, 0xF9, 0x3D, 0xA5, 0x55, 0x6D, 0x3D,
    0x21, 0x65, 0x38, 0x3E, 0xF4, 0xEF, 0x47, 0x3E, 0x0B, 0x2B, 0xAA, 0xBE, 0xB1, 0x2C, 0x88, 0x3D,
    0xEF, 0x87, 0x47, 0x3E, 0x72, 0x93, 0xB1, 0xBD, 0x08, 0x05, 0x3B, 0x3E, 0x62, 0x70, 0x8D, 0xBF,
    0x07, 0xC7, 0x94, 0x3E, 0xFA, 0x2E, 0xF5, 0x3C, 0x91, 0x45, 0x18, 0xBE, 0x75, 0x32, 0x99, 0x3E,
    0x18, 0xAF, 0x5F, 0xBD, 0x55, 0x56, 0x6F, 0xBC, 0x42, 0x25, 0x6B, 0xBE, 0x17, 0x95, 0x70, 0xBE,
    0x8F, 0x54, 0xB7, 0x3D, 0x7E, 0x8D, 0x9B, 0x3E, 0xE8, 0x71, 0x84, 0xBD, 0xE5, 0x43, 0x8C, 0x3B,
    0xB5, 0x77, 0x88, 0x3E, 0x0C, 0x8C, 0x28, 0x3E, 0x2C, 0x1D, 0xAA, 0xBE, 0x01, 0xF5, 0x84, 0xBE,
    0x92, 0x39, 0x8D, 0xBC, 0x30, 0x8D, 0xB9, 0xBD, 0xA8, 0x6E, 0xC1, 0x3D, 0x8B, 0x59, 0x3A, 0xBE,
    0x6F, 0xDA, 0x56, 0xBE, 0x35, 0xA5, 0x5A, 0x3E, 0x27, 0xF0, 0x78, 0xBE, 0x18, 0x0D, 0xA4, 0xBE,
    0xAF, 0x86, 0xA2, 0x3E, 0xBA, 0xDA, 0x6A, 0x3E, 0x80, 0x26, 0xC3, 0xBB, 0x48, 0xA2, 0xCA, 0xBD,
    0x02, 0xB4, 0x52, 0x3E, 0x45, 0x51, 0x98, 0xBE, 0xE4, 0x17, 0x8D, 0xBD, 0x58, 0xEA, 0x64, 0xBD,
    0x35, 0x3B, 0x5D, 0xBE, 0x18, 0xFB, 0x26, 0xBD, 0x70, 0xB0, 0x04, 0x3E, 0xEC, 0x43, 0x0C, 0x3E,
    0x42, 0xDC, 0x19, 0x3E, 0x7E, 0x9C, 0x5F, 0xBE, 0x6E, 0x2B, 0x5D, 0x3E, 0xDF, 0x9F, 0xAD, 0xBE,
    0x5B, 0x6B, 0xB1, 0xBE, 0x14, 0x37, 0xF2, 0x3D, 0xCE, 0xED, 0x18, 0x3E, 0xF6, 0x8B, 0x6C, 0xBE,
    0x3B, 0x35, 0x0F, 0xBE, 0x80, 0x66, 0xE6, 0x3B, 0xDA, 0x3D, 0x30, 0xBE, 0xE0, 0xF8, 0x09, 0xBD,
    0xA4, 0x24, 0xEF, 0xBD, 0x20, 0xEE, 0xFB, 0xBC, 0x40, 0xCA, 0xE5, 0x3D, 0x00, 0x7F, 0x87, 0xBB,
    0x24, 0x67, 0x3B, 0xBE, 0x00, 0x4C, 0xD6, 0xBC, 0x46, 0x1C, 0x45, 0x3E, 0x90, 0x8F, 0x0B, 0xBE,
    0x59, 0xB9, 0x57, 0xBE, 0xDD, 0x42, 0x2A, 0xBD, 0xAF, 0x0B, 0xA1, 0x3B, 0xD4, 0x9E, 0xB5, 0x3D,
    0xF9, 0x3D, 0x3B, 0xBC, 0x0A, 0x8B, 0x4D, 0x3C, 0x7A, 0xC0, 0xCC, 0x3E, 0x97, 0x86, 0xA9, 0xBD,
    0x99, 0x7F, 0xEC, 0x3E, 0xF7, 0xB3, 0x93, 0x3E, 0xCC, 0x06, 0x44, 0xBE, 0xB3, 0x36, 0xDA, 0xBC,
    0xC4, 0x8D, 0x2A, 0xBE, 0x0F, 0x6B, 0x38, 0xBE, 0x79, 0x7B, 0x5C, 0xBE, 0x52, 0xA5, 0x25, 0xBE,
    // Biases
    0xE9, 0xD3, 0xA1, 0xBC, 0x4C, 0xC3, 0xEC, 0x3D, 0x29, 0x10, 0x0D, 0xBD, 0xE0, 0x14, 0x09, 0xBC,
    0x80, 0x6E, 0x10, 0x3E, 0x6C, 0xC7, 0x6D, 0xBE, 0x46, 0x80, 0xB0, 0x3E, 0x71, 0xDD, 0x44, 0x3F,
    0x8E, 0xA0, 0x2E, 0x3E, 0x0D, 0x22, 0x94, 0xBC, 0x0B, 0xA1, 0x85, 0xBE, 0x3B, 0xA6, 0xCA, 0x3E,
    0x00, 0x00, 0x00, 0x00, 0xEA, 0x60, 0x2B, 0xBE, 0x00, 0x00, 0x00, 0x00, 0x0A, 0xA4, 0x42, 0xBD,

    // Layer Type: ReLU Activation
    0x01, 0x00, 0x00, 0x00,
    // Input dimensions and shape
    0x01, 0x00, 0x00, 0x00, 0x10, 0x00, 0x00, 0x00,

    // Layer Type: Fully Connected Layer
    0x00, 0x00, 0x00, 0x00,
    // Input size and Output size
    0x10, 0x00, 0x00, 0x00, 0x01, 0x00, 0x00, 0x00,
    // Weights
    0x22, 0xDC, 0x5E, 0x3E, 0x2C, 0xB8, 0x4F, 0xBE, 0x95, 0xC1, 0x40, 0x3E, 0xC7, 0x92, 0x00, 0xBF,
    0xC3, 0x15, 0x05, 0xBF, 0x2B, 0xC2, 0x32, 0x3F, 0xBE, 0xE3, 0x7E, 0x3F, 0x05, 0xB4, 0x71, 0xBF,
    0x4A, 0x5D, 0xCE, 0xBE, 0x9A, 0x5C, 0xF8, 0xBE, 0xB4, 0x1B, 0x78, 0x3F, 0x1F, 0x21, 0x61, 0x3F,
    0xCA, 0xB9, 0x08, 0x3F, 0x82, 0x0B, 0x0E, 0x3F, 0x84, 0x23, 0xE7, 0xBD, 0xE7, 0x78, 0xBA, 0x3E,
    // Biases
    0xD2, 0x78, 0x4A, 0xBE,
};

unsigned int sine_model_len = sizeof(sine_model);

#endif // SINE_MODEL_H
